TRT-100200-EntropyCalibration2
input_1:0: 3f9849a2
conv1/convolution:0: 4104ffde
bn_conv1/batchnorm/mul__7_output: 3a11e538
bn_conv1/batchnorm/mul_1:0: 3e233b1e
bn_conv1/batchnorm/sub__8_output: 3cbc1e95
bn_conv1/batchnorm/add_1:0: 3e43d16f
activation_1/Relu:0: 3e43d16f
block_1a_conv_shortcut/convolution:0: 3e44da22
block_1a_bn_shortcut/batchnorm/mul__16_output: 3c5993fc
block_1a_bn_shortcut/batchnorm/mul_1:0: 3e58b585
block_1a_bn_shortcut/batchnorm/sub__17_output: 3d0e8d9c
block_1a_bn_shortcut/batchnorm/add_1:0: 3e24a879
block_1a_conv_1/convolution:0: 3ef9489d
block_1a_bn_1/batchnorm/mul__10_output: 3bbe0daf
block_1a_bn_1/batchnorm/mul_1:0: 3e2c131d
block_1a_bn_1/batchnorm/sub__11_output: 3ce842b6
block_1a_bn_1/batchnorm/add_1:0: 3e030549
block_1a_relu_1/Relu:0: 3db97517
block_1a_conv_2/convolution:0: 3e6e7208
block_1a_bn_2/batchnorm/mul__14_output: 3c21be0c
block_1a_bn_2/batchnorm/mul_1:0: 3e3eae5f
block_1a_bn_2/batchnorm/sub__15_output: 3d0c35f8
block_1a_bn_2/batchnorm/add_1:0: 3e248e17
add_1/add:0: 3e8cde13
block_1a_relu/Relu:0: 3e693c88
block_1b_conv_shortcut/convolution:0: 3e7563dc
block_1b_bn_shortcut/batchnorm/mul__25_output: 3be1c1c3
block_1b_bn_shortcut/batchnorm/mul_1:0: 3de37775
block_1b_bn_shortcut/batchnorm/sub__26_output: 3ca94fcb
block_1b_bn_shortcut/batchnorm/add_1:0: 3dea31ac
block_1b_conv_1/convolution:0: 3f108d0b
block_1b_bn_1/batchnorm/mul__19_output: 3b59415c
block_1b_bn_1/batchnorm/mul_1:0: 3df60981
block_1b_bn_1/batchnorm/sub__20_output: 3c9c865d
block_1b_bn_1/batchnorm/add_1:0: 3dda8cd6
block_1b_relu_1/Relu:0: 3d9902f4
block_1b_conv_2/convolution:0: 3e447d08
block_1b_bn_2/batchnorm/mul__23_output: 3c184256
block_1b_bn_2/batchnorm/mul_1:0: 3df872e1
block_1b_bn_2/batchnorm/sub__24_output: 3c9b9f21
block_1b_bn_2/batchnorm/add_1:0: 3dfbf91b
add_2/add:0: 3e3265c2
block_1b_relu/Relu:0: 3e2c10a9
block_2a_conv_shortcut/convolution:0: 3e131b0b
block_2a_bn_shortcut/batchnorm/mul__34_output: 3bfd825d
block_2a_bn_shortcut/batchnorm/mul_1:0: 3d9bad16
block_2a_bn_shortcut/batchnorm/sub__35_output: 3c835aeb
block_2a_bn_shortcut/batchnorm/add_1:0: 3d91a315
block_2a_conv_1/convolution:0: 3ed683f3
block_2a_bn_1/batchnorm/mul__28_output: 3b659829
block_2a_bn_1/batchnorm/mul_1:0: 3dba1fdf
block_2a_bn_1/batchnorm/sub__29_output: 3c9d687f
block_2a_bn_1/batchnorm/add_1:0: 3dac1cae
block_2a_relu_1/Relu:0: 3dab510e
block_2a_conv_2/convolution:0: 3eb288f4
block_2a_bn_2/batchnorm/mul__32_output: 3bddabb5
block_2a_bn_2/batchnorm/mul_1:0: 3dfdc11c
block_2a_bn_2/batchnorm/sub__33_output: 3d0f3d4c
block_2a_bn_2/batchnorm/add_1:0: 3dcec406
add_3/add:0: 3dfd5e12
block_2a_relu/Relu:0: 3e07822f
block_2b_conv_shortcut/convolution:0: 3e09d3a9
block_2b_bn_shortcut/batchnorm/mul__43_output: 3bf5a610
block_2b_bn_shortcut/batchnorm/mul_1:0: 3daed1f3
block_2b_bn_shortcut/batchnorm/sub__44_output: 3cc68c8d
block_2b_bn_shortcut/batchnorm/add_1:0: 3daa59ed
block_2b_conv_1/convolution:0: 3ed09a96
block_2b_bn_1/batchnorm/mul__37_output: 3b158863
block_2b_bn_1/batchnorm/mul_1:0: 3da46482
block_2b_bn_1/batchnorm/sub__38_output: 3cc7c929
block_2b_bn_1/batchnorm/add_1:0: 3d94cb00
block_2b_relu_1/Relu:0: 3d8718f5
block_2b_conv_2/convolution:0: 3e011b46
block_2b_bn_2/batchnorm/mul__41_output: 3c5fd4f7
block_2b_bn_2/batchnorm/mul_1:0: 3df3033a
block_2b_bn_2/batchnorm/sub__42_output: 3cd030dc
block_2b_bn_2/batchnorm/add_1:0: 3dd13074
add_4/add:0: 3e09e650
block_2b_relu/Relu:0: 3e0ef4cb
block_3a_conv_shortcut/convolution:0: 3dc8c7bd
block_3a_bn_shortcut/batchnorm/mul__52_output: 3bc9e149
block_3a_bn_shortcut/batchnorm/mul_1:0: 3d3cf50d
block_3a_bn_shortcut/batchnorm/sub__53_output: 3c5c49e0
block_3a_bn_shortcut/batchnorm/add_1:0: 3d4dd216
block_3a_conv_1/convolution:0: 3e93d29a
block_3a_bn_1/batchnorm/mul__46_output: 3b372c4d
block_3a_bn_1/batchnorm/mul_1:0: 3d8d421c
block_3a_bn_1/batchnorm/sub__47_output: 3c978479
block_3a_bn_1/batchnorm/add_1:0: 3d842efc
block_3a_relu_1/Relu:0: 3d8ceacf
block_3a_conv_2/convolution:0: 3e217f38
block_3a_bn_2/batchnorm/mul__50_output: 3be940f8
block_3a_bn_2/batchnorm/mul_1:0: 3dbdbb69
block_3a_bn_2/batchnorm/sub__51_output: 3cb023d4
block_3a_bn_2/batchnorm/add_1:0: 3db581fe
add_5/add:0: 3dd75d84
block_3a_relu/Relu:0: 3ddea79e
block_3b_conv_shortcut/convolution:0: 3e19e097
block_3b_bn_shortcut/batchnorm/mul__61_output: 3bcf5e9f
block_3b_bn_shortcut/batchnorm/mul_1:0: 3da454d0
block_3b_bn_shortcut/batchnorm/sub__62_output: 3c98f85c
block_3b_bn_shortcut/batchnorm/add_1:0: 3dad9067
block_3b_conv_1/convolution:0: 3e8da30e
block_3b_bn_1/batchnorm/mul__55_output: 3b232571
block_3b_bn_1/batchnorm/mul_1:0: 3d914223
block_3b_bn_1/batchnorm/sub__56_output: 3cd36c80
block_3b_bn_1/batchnorm/add_1:0: 3d808ddb
block_3b_relu_1/Relu:0: 3d5675a8
block_3b_conv_2/convolution:0: 3de53def
block_3b_bn_2/batchnorm/mul__59_output: 3c39af2b
block_3b_bn_2/batchnorm/mul_1:0: 3dbbc34d
block_3b_bn_2/batchnorm/sub__60_output: 3cbc6410
block_3b_bn_2/batchnorm/add_1:0: 3da23173
add_6/add:0: 3df37510
block_3b_relu/Relu:0: 3de2cddd
block_4a_conv_shortcut/convolution:0: 3d89462c
block_4a_bn_shortcut/batchnorm/mul__70_output: 3c0d611e
block_4a_bn_shortcut/batchnorm/mul_1:0: 3d668aa7
block_4a_bn_shortcut/batchnorm/sub__71_output: 3c4ed7d8
block_4a_bn_shortcut/batchnorm/add_1:0: 3d5c6f62
block_4a_conv_1/convolution:0: 3e40745d
block_4a_bn_1/batchnorm/mul__64_output: 3b37f2b3
block_4a_bn_1/batchnorm/mul_1:0: 3d5c139a
block_4a_bn_1/batchnorm/sub__65_output: 3c6e55b3
block_4a_bn_1/batchnorm/add_1:0: 3d5bbd27
block_4a_relu_1/Relu:0: 3d4477a8
block_4a_conv_2/convolution:0: 3d7a43ae
block_4a_bn_2/batchnorm/mul__68_output: 3c4fa08a
block_4a_bn_2/batchnorm/mul_1:0: 3d983e2e
block_4a_bn_2/batchnorm/sub__69_output: 3c689005
block_4a_bn_2/batchnorm/add_1:0: 3d888944
add_7/add:0: 3db32129
block_4a_relu/Relu:0: 3d9ac9cf
block_4b_conv_shortcut/convolution:0: 3d3061f8
block_4b_bn_shortcut/batchnorm/mul__79_output: 3d0c4910
block_4b_bn_shortcut/batchnorm/mul_1:0: 3e0db980
block_4b_bn_shortcut/batchnorm/sub__80_output: 3c41ab03
block_4b_bn_shortcut/batchnorm/add_1:0: 3dfac1bc
block_4b_conv_1/convolution:0: 3dfc1387
block_4b_bn_1/batchnorm/mul__73_output: 3be0b5cb
block_4b_bn_1/batchnorm/mul_1:0: 3d919cd2
block_4b_bn_1/batchnorm/sub__74_output: 3cce84b6
block_4b_bn_1/batchnorm/add_1:0: 3d85b56d
block_4b_relu_1/Relu:0: 3d73296f
block_4b_conv_2/convolution:0: 3dba0111
block_4b_bn_2/batchnorm/mul__77_output: 3d147ef3
block_4b_bn_2/batchnorm/mul_1:0: 3e668945
block_4b_bn_2/batchnorm/sub__78_output: 3c5dce3e
block_4b_bn_2/batchnorm/add_1:0: 3e73ea14
add_8/add:0: 3e8bcec3
block_4b_relu/Relu:0: 3e90d884
avg_pool/AvgPool:0: 3e90d884
flatten/Reshape:0: 3cf618fd
predictions/kernel/read__81_output: 3c23d576
predictions/MatMul:0: 3ea93495
predictions/bias/read__82_output: 3c021685
ONNXTRT_Broadcast_output: 3c021685
predictions/BiasAdd:0: 3e9dfa2f
ONNXTRT_flattenTensor_output: 3e9dfa2f
predictions/Softmax:0: 3c010a14
predictions/Softmax_output: 3c010a14
